TRT-7102-EntropyCalibration2
input_1: 3caa54fc
351: 3e09d395
352: 3c43dd5f
355: 3c6e4e28
356: 3c92cfd3
357: 3cc66c09
360: 3cd42041
361: 3d8d108d
362: 3d88dbb5
363: 3d433e53
364: 3d1ba5e0
367: 3cfd8306
368: 3cb57e68
369: 3d1db81b
372: 3d13bb77
373: 3d71cd4c
374: 3d84b3bb
375: 3d2dbff6
376: 3c9dcc99
379: 3caa391d
380: 3bdb75fd
381: 3ce53c12
384: 3cb61428
385: 3cf55869
386: 3d609edd
387: 3da7ff68
388: 3d63fe8a
389: 3cd739e7
392: 3cac1744
393: 3ca11af9
394: 3d448589
397: 3d2ffbf8
398: 3d891122
399: 3d8d0dde
400: 3d18ad82
401: 3c8baf4c
404: 3c874c2d
405: 3baf234d
406: 3ccd0628
409: 3cd878f2
410: 3cc09747
411: 3d608a71
412: 3da6c16f
413: 3d044e67
414: 3c8024a3
417: 3c894cbc
418: 3b65cf18
419: 3c9cc5a5
422: 3cba71a0
423: 3c6b4b68
424: 3d16a139
425: 3dab4daa
426: 3d57f9d8
427: 3c997f9e
430: 3c98670c
431: 3c8aebce
432: 3d1eb4e4
435: 3d23cb97
436: 3d5ffa31
437: 3d865413
438: 3d0afea6
439: 3c66e4bb
442: 3c6733b3
443: 3b766074
444: 3ce04d65
447: 3cccb46f
448: 3cc2b548
449: 3d3ec887
450: 3d7e5065
451: 3cfd86eb
452: 3c4beefa
455: 3c3552e9
456: 3b49bb68
457: 3d127ef9
460: 3d2b8b16
461: 3c83c910
462: 3d09cd7f
463: 3d89f099
464: 3cea3689
465: 3c400690
468: 3c2fd105
469: 3b6fb384
470: 3d03238f
473: 3d25af5f
474: 3c546ac9
475: 3d009e12
476: 3d90255b
477: 3d32a0aa
478: 3c77065b
481: 3c560350
482: 3bd1b6a1
483: 3d177354
486: 3d340c18
487: 3d0b2292
488: 3d20ef59
489: 3ca040ac
490: 3c71a645
493: 3c747da1
494: 3b773f5b
495: 3d15a19b
498: 3d14952a
499: 3c91a7d7
500: 3cfe5c15
501: 3d4da093
502: 3ca1e327
503: 3c38002a
506: 3c2c2dd0
507: 3b30aec9
508: 3cebaff4
511: 3cff66ce
512: 3c8c46fe
513: 3d2ea382
514: 3d801858
515: 3d08942a
516: 3c67d0c2
519: 3c3043a8
520: 3bf230b1
521: 3ca453d7
524: 3cd84891
525: 3c9f18ba
526: 3c8a1596
527: 3c0d2a41
528: 3c060224
531: 3c060224
532: 3b1bf751
533: 3cfd3eef
536: 3cdfd7af
537: 3c3522df
538: 3c4f728b
539: 3cb802ba
540: 3c119c8c
541: 3bba2ce0
544: 3bcbea6f
545: 3b1800fd
546: 3cd46961
549: 3cc19b36
550: 3c1e2787
551: 3c8dbf3e
552: 3d017d1e
553: 3ca6c064
554: 3baac6fe
557: 3ba1a95e
558: 3b12b477
559: 3d5d63fe
562: 3c50d1a3
563: 3cbba7da
564: 3d586903
565: 3d1ddaa9
566: 3c9ca935
569: 3d1ddaa9
570: 3d214c7c
571: 3c9a22d7
574: 3d214c7c
575: 3d28ee41
576: 3d95e40f
577: 3d959bc4
578: 3d62d809
579: 3d1981b4
580: 3d18a671
581: 3d136f50
582: 3d9659bf
583: 3d83e38b
584: 3d853085
585: 3d79e7ab
586: 3d75845a
587: 3d721c69
588: 3dac8106
589: 3db76a4c
590: 3d63bb7b
591: 3d83c116
592: 3d793718
593: 3d8567db
594: 3d84b8c5
595: 3db0cb74
596: 3db0cb74
597: 3dea83f6
598: 3dea83f6
599: 3d7e7e43
600: 3d8a7981
601: 3d8a6f15
602: 3d8b8be1
603: 3d94a24f
604: 3dbb222c
605: 3dbd9793
606: 3dd4f54b
607: 3de49a5d
608: 3d8171fe
609: 3de45832
610: 3de45832
611: 3def36a6
612: 3dd25ae1
613: 3e04b66a
614: 3de8e63f
615: 3e3c89dd
616: 3e3be27b
617: 3d9e29a0
618: 3da7f09c
619: 3da9255b
620: 3daf7949
621: 3db18dd1
622: 3dc3de74
623: 3dc649ff
624: 3e030fa0
625: 3e030fa0
626: 3d882b5b
627: 3d34b0b3
628: 3d35845f
629: 3d0c1ddd
630: 3d0c1ddd
631: 3cf6eda4
632: 3d0102a4
633: 3d92a513
634: 3d93d685
box_1: 3cef8238
636: 3d36f7cd
637: 3d3c094e
638: 3d17ccd1
639: 3d184cf1
640: 3d01cc35
641: 3d07541e
642: 3d923dea
643: 3d8e4e9d
box_2: 3cecef93
645: 3d474422
646: 3d468b34
647: 3d215704
648: 3d1ee5cf
649: 3d0b71e6
650: 3d0bb9b0
651: 3d8bc1e8
652: 3d8e9b82
box_3: 3cf7fcbf
654: 3d8789ab
655: 3d8718cf
656: 3d279cce
657: 3d291cf7
658: 3d3467c7
659: 3d3467c7
660: 3dd78d6f
661: 3dd78d6f
box_4: 3d1bf5da
663: 3d92e5f6
664: 3d3d1cae
665: 3ceff7bb
666: 3cf1b7bc
667: 3d39ffed
668: 3d356672
669: 3dcb83b4
670: 3dcef307
box_5: 3d07e90c
score_1: 3a09ff09
score_2: 3ae6c6b7
score_3: 3b25197c
score_4: 39b46dbb
score_5: 3a8b0d4f
(Unnamed Layer* 254) [PluginV2DynamicExt]_output_0: 3be6b838
(Unnamed Layer* 254) [PluginV2DynamicExt]_output_1: 4125aeef
(Unnamed Layer* 254) [PluginV2DynamicExt]_output_2: 3d010a14
(Unnamed Layer* 255) [PluginV2DynamicExt]_output_0: 3be6b838
(Unnamed Layer* 255) [PluginV2DynamicExt]_output_1: 4125aeef
(Unnamed Layer* 255) [PluginV2DynamicExt]_output_2: 3d010a14
(Unnamed Layer* 256) [PluginV2DynamicExt]_output_0: 3be6b838
(Unnamed Layer* 256) [PluginV2DynamicExt]_output_1: 4125aeef
(Unnamed Layer* 256) [PluginV2DynamicExt]_output_2: 3d010a14
(Unnamed Layer* 257) [PluginV2DynamicExt]_output_0: 3be6b838
(Unnamed Layer* 257) [PluginV2DynamicExt]_output_1: 4125aeef
(Unnamed Layer* 257) [PluginV2DynamicExt]_output_2: 3d010a14
(Unnamed Layer* 258) [PluginV2DynamicExt]_output_0: 3be6b838
(Unnamed Layer* 258) [PluginV2DynamicExt]_output_1: 4125aeef
(Unnamed Layer* 258) [PluginV2DynamicExt]_output_2: 3d010a14
(Unnamed Layer* 259) [Concatenation]_output: 3be6b838
(Unnamed Layer* 260) [Concatenation]_output: 4125aeef
(Unnamed Layer* 261) [Concatenation]_output: 3d010a14
scores: 3be6b838
boxes: 4120dbc6
classes: 3d010a14
